TRT-8501-EntropyCalibration2
images: 3c010a14
/model.0/conv/Conv_output_0: 3ebfb137
/model.0/act/Sigmoid_output_0: 3c010a14
/model.0/act/Mul_output_0: 3e109f7b
/model.1/conv/Conv_output_0: 3eb1b24a
/model.1/act/Sigmoid_output_0: 3c010a14
/model.1/act/Mul_output_0: 3e7daaa0
/model.2/cv1/conv/Conv_output_0: 3e567458
/model.2/cv1/act/Sigmoid_output_0: 3c010a14
/model.2/cv1/act/Mul_output_0: 3dc91431
/model.2/Slice_output_0: 3d67dc53
/model.2/m.0/cv1/conv/Conv_output_0: 3df50bcd
/model.2/m.0/cv1/act/Sigmoid_output_0: 3c04182f
/model.2/m.0/cv1/act/Mul_output_0: 3d677dcd
/model.2/m.0/cv2/conv/Conv_output_0: 3df97b62
/model.2/m.0/cv2/act/Sigmoid_output_0: 3c0213e7
/model.2/m.0/cv2/act/Mul_output_0: 3d45fcb9
/model.2/m.0/Add_output_0: 3ddc4ecb
/model.2/m.1/cv1/conv/Conv_output_0: 3dbaaeea
/model.2/m.1/cv1/act/Sigmoid_output_0: 3c03cef2
/model.2/m.1/cv1/act/Mul_output_0: 3d01708a
/model.2/m.1/cv2/conv/Conv_output_0: 3e0fbc5d
/model.2/m.1/cv2/act/Sigmoid_output_0: 3c010a14
/model.2/m.1/cv2/act/Mul_output_0: 3d93f859
/model.2/m.1/Add_output_0: 3e25a94f
/model.2/Concat_output_0: 3dcffa48
/model.2/cv2/conv/Conv_output_0: 3db06660
/model.2/cv2/act/Sigmoid_output_0: 3c0415fb
/model.2/cv2/act/Mul_output_0: 3cd40020
/model.3/conv/Conv_output_0: 3d7a91fd
/model.3/act/Sigmoid_output_0: 3c059b16
/model.3/act/Mul_output_0: 3c99242b
/model.4/cv1/conv/Conv_output_0: 3dac4d74
/model.4/cv1/act/Sigmoid_output_0: 3c087fe3
/model.4/cv1/act/Mul_output_0: 3d12601c
/model.4/Slice_output_0: 3d01ddbb
/model.4/m.0/cv1/conv/Conv_output_0: 3d908bb7
/model.4/m.0/cv1/act/Sigmoid_output_0: 3c05f594
/model.4/m.0/cv1/act/Mul_output_0: 3c924cb6
/model.4/m.0/cv2/conv/Conv_output_0: 3d4f0f90
/model.4/m.0/cv2/act/Sigmoid_output_0: 3c00c2f4
/model.4/m.0/cv2/act/Mul_output_0: 3c9ad08b
/model.4/m.0/Add_output_0: 3d318d3f
/model.4/m.1/cv1/conv/Conv_output_0: 3d870efd
/model.4/m.1/cv1/act/Sigmoid_output_0: 3c004ec6
/model.4/m.1/cv1/act/Mul_output_0: 3c1ed964
/model.4/m.1/cv2/conv/Conv_output_0: 3d5fb4cd
/model.4/m.1/cv2/act/Sigmoid_output_0: 3c05c0ef
/model.4/m.1/cv2/act/Mul_output_0: 3c903f72
/model.4/m.1/Add_output_0: 3d544af9
/model.4/m.2/cv1/conv/Conv_output_0: 3d5695b3
/model.4/m.2/cv1/act/Sigmoid_output_0: 3bfe5a7c
/model.4/m.2/cv1/act/Mul_output_0: 3c03fa87
/model.4/m.2/cv2/conv/Conv_output_0: 3d800033
/model.4/m.2/cv2/act/Sigmoid_output_0: 3c00c0be
/model.4/m.2/cv2/act/Mul_output_0: 3cb2a25b
/model.4/m.2/Add_output_0: 3d7932bd
/model.4/m.3/cv1/conv/Conv_output_0: 3d629a11
/model.4/m.3/cv1/act/Sigmoid_output_0: 3c01db04
/model.4/m.3/cv1/act/Mul_output_0: 3c323bc4
/model.4/m.3/cv2/conv/Conv_output_0: 3dba2377
/model.4/m.3/cv2/act/Sigmoid_output_0: 3c0314f6
/model.4/m.3/cv2/act/Mul_output_0: 3d10b728
/model.4/m.3/Add_output_0: 3d93b906
/model.4/Concat_output_0: 3d73e428
/model.4/cv2/conv/Conv_output_0: 3d85280f
/model.4/cv2/act/Sigmoid_output_0: 3c00eee2
/model.4/cv2/act/Mul_output_0: 3cd354b8
/model.5/conv/Conv_output_0: 3d65b05e
/model.5/act/Sigmoid_output_0: 3c00e757
/model.5/act/Mul_output_0: 3c9945f6
/model.6/cv1/conv/Conv_output_0: 3da18188
/model.6/cv1/act/Sigmoid_output_0: 3c00f027
/model.6/cv1/act/Mul_output_0: 3ce66c37
/model.6/Slice_output_0: 3cc13a69
/model.6/m.0/cv1/conv/Conv_output_0: 3d82c08e
/model.6/m.0/cv1/act/Sigmoid_output_0: 3c00bf2d
/model.6/m.0/cv1/act/Mul_output_0: 3cb1ddbb
/model.6/m.0/cv2/conv/Conv_output_0: 3d40d0b2
/model.6/m.0/cv2/act/Sigmoid_output_0: 3c01a72e
/model.6/m.0/cv2/act/Mul_output_0: 3c617146
/model.6/m.0/Add_output_0: 3d119ae4
/model.6/m.1/cv1/conv/Conv_output_0: 3d71aa53
/model.6/m.1/cv1/act/Sigmoid_output_0: 3c002a87
/model.6/m.1/cv1/act/Mul_output_0: 3c14693f
/model.6/m.1/cv2/conv/Conv_output_0: 3d5abca1
/model.6/m.1/cv2/act/Sigmoid_output_0: 3c00f21e
/model.6/m.1/cv2/act/Mul_output_0: 3cd580f8
/model.6/m.1/Add_output_0: 3d2cd666
/model.6/m.2/cv1/conv/Conv_output_0: 3d6d0aef
/model.6/m.2/cv1/act/Sigmoid_output_0: 3c00575f
/model.6/m.2/cv1/act/Mul_output_0: 3c747c87
/model.6/m.2/cv2/conv/Conv_output_0: 3d80732c
/model.6/m.2/cv2/act/Sigmoid_output_0: 3c00ec7b
/model.6/m.2/cv2/act/Mul_output_0: 3c967f6c
/model.6/m.2/Add_output_0: 3d63ce88
/model.6/m.3/cv1/conv/Conv_output_0: 3d76a162
/model.6/m.3/cv1/act/Sigmoid_output_0: 3bfd676e
/model.6/m.3/cv1/act/Mul_output_0: 3c33a1c6
/model.6/m.3/cv2/conv/Conv_output_0: 3db2dcbc
/model.6/m.3/cv2/act/Sigmoid_output_0: 3c0110ea
/model.6/m.3/cv2/act/Mul_output_0: 3d104e48
/model.6/m.3/Add_output_0: 3d9ad416
/model.6/Concat_output_0: 3d40a40f
/model.6/cv2/conv/Conv_output_0: 3d82cc17
/model.6/cv2/act/Sigmoid_output_0: 3c00e7e3
/model.6/cv2/act/Mul_output_0: 3cebe8bb
/model.7/conv/Conv_output_0: 3d6a2fe8
/model.7/act/Sigmoid_output_0: 3c00e8f9
/model.7/act/Mul_output_0: 3cc15b25
/model.8/cv1/conv/Conv_output_0: 3d9c5d32
/model.8/cv1/act/Sigmoid_output_0: 3c01115d
/model.8/cv1/act/Mul_output_0: 3ce7bb5f
/model.8/Slice_output_0: 3ce7bb5f
/model.8/m.0/cv1/conv/Conv_output_0: 3d9c7912
/model.8/m.0/cv1/act/Sigmoid_output_0: 3c011055
/model.8/m.0/cv1/act/Mul_output_0: 3d03afb2
/model.8/m.0/cv2/conv/Conv_output_0: 3d9cd521
/model.8/m.0/cv2/act/Sigmoid_output_0: 3c010961
/model.8/m.0/cv2/act/Mul_output_0: 3cc1c93f
/model.8/m.0/Add_output_0: 3d210aa4
/model.8/m.1/cv1/conv/Conv_output_0: 3da8cf2c
/model.8/m.1/cv1/act/Sigmoid_output_0: 3c010a3e
/model.8/m.1/cv1/act/Mul_output_0: 3d02ae56
/model.8/m.1/cv2/conv/Conv_output_0: 3dcf9272
/model.8/m.1/cv2/act/Sigmoid_output_0: 3c0110d3
/model.8/m.1/cv2/act/Mul_output_0: 3d455a65
/model.8/m.1/Add_output_0: 3d9c6e3c
/model.8/Concat_output_0: 3d11c805
/model.8/cv2/conv/Conv_output_0: 3d852bbf
/model.8/cv2/act/Sigmoid_output_0: 3c00f133
/model.8/cv2/act/Mul_output_0: 3cea4b63
/model.9/cv1/conv/Conv_output_0: 3d85c0fe
/model.9/cv1/act/Sigmoid_output_0: 3c00f13b
/model.9/cv1/act/Mul_output_0: 3d4453ce
/model.9/m/MaxPool_output_0: 3d4453ce
/model.9/m_1/MaxPool_output_0: 3d4453ce
/model.9/m_2/MaxPool_output_0: 3d4453ce
/model.9/Concat_output_0: 3d91aba4
/model.9/cv2/conv/Conv_output_0: 3daad16f
/model.9/cv2/act/Sigmoid_output_0: 3c0095eb
/model.9/cv2/act/Mul_output_0: 3c81624d
/model.10/Resize_output_0: 3c81624d
/model.11/Concat_output_0: 3cc2d853
/model.12/cv1/conv/Conv_output_0: 3d8c350a
/model.12/cv1/act/Sigmoid_output_0: 3c00edbd
/model.12/cv1/act/Mul_output_0: 3cd1887f
/model.12/Slice_output_0: 3cd1887f
/model.12/m.0/cv1/conv/Conv_output_0: 3d9687d3
/model.12/m.0/cv1/act/Sigmoid_output_0: 3c00f12f
/model.12/m.0/cv1/act/Mul_output_0: 3cd4d566
/model.12/m.0/cv2/conv/Conv_output_0: 3d907db7
/model.12/m.0/cv2/act/Sigmoid_output_0: 3c0109e1
/model.12/m.0/cv2/act/Mul_output_0: 3cabea16
/model.12/m.1/cv1/conv/Conv_output_0: 3da9a46f
/model.12/m.1/cv1/act/Sigmoid_output_0: 3c010fdc
/model.12/m.1/cv1/act/Mul_output_0: 3c910fc8
/model.12/m.1/cv2/conv/Conv_output_0: 3d8baf02
/model.12/m.1/cv2/act/Sigmoid_output_0: 3c010fe2
/model.12/m.1/cv2/act/Mul_output_0: 3c913948
/model.12/Concat_output_0: 3cd30adb
/model.12/cv2/conv/Conv_output_0: 3d82dbbb
/model.12/cv2/act/Sigmoid_output_0: 3c010823
/model.12/cv2/act/Mul_output_0: 3c9ced49
/model.13/Resize_output_0: 3c9ced49
/model.14/Concat_output_0: 3c91acba
/model.15/cv1/conv/Conv_output_0: 3d64e2d0
/model.15/cv1/act/Sigmoid_output_0: 3c00f604
/model.15/cv1/act/Mul_output_0: 3cd46a9d
/model.15/Slice_output_0: 3cd59f62
/model.15/m.0/cv1/conv/Conv_output_0: 3d64a203
/model.15/m.0/cv1/act/Sigmoid_output_0: 3c006339
/model.15/m.0/cv1/act/Mul_output_0: 3cb3b135
/model.15/m.0/cv2/conv/Conv_output_0: 3d6869f7
/model.15/m.0/cv2/act/Sigmoid_output_0: 3c00b83d
/model.15/m.0/cv2/act/Mul_output_0: 3c51cc47
/model.15/m.1/cv1/conv/Conv_output_0: 3d7c5d94
/model.15/m.1/cv1/act/Sigmoid_output_0: 3c016fad
/model.15/m.1/cv1/act/Mul_output_0: 3cc33c63
/model.15/m.1/cv2/conv/Conv_output_0: 3d90ba4e
/model.15/m.1/cv2/act/Sigmoid_output_0: 3c00e454
/model.15/m.1/cv2/act/Mul_output_0: 3d157e6a
/model.15/Concat_output_0: 3ced20cb
/model.15/cv2/conv/Conv_output_0: 3d850387
/model.15/cv2/act/Sigmoid_output_0: 3c010141
/model.15/cv2/act/Mul_output_0: 3c685dda
/model.16/conv/Conv_output_0: 3d692142
/model.16/act/Sigmoid_output_0: 3c0111d4
/model.16/act/Mul_output_0: 3cb370e4
/model.17/Concat_output_0: 3cb370e4
/model.18/cv1/conv/Conv_output_0: 3d963072
/model.18/cv1/act/Sigmoid_output_0: 3c010a14
/model.18/cv1/act/Mul_output_0: 3d2a7016
/model.18/Slice_output_0: 3d02d08f
/model.18/m.0/cv1/conv/Conv_output_0: 3da0502c
/model.18/m.0/cv1/act/Sigmoid_output_0: 3c01121f
/model.18/m.0/cv1/act/Mul_output_0: 3cd30721
/model.18/m.0/cv2/conv/Conv_output_0: 3d971c68
/model.18/m.0/cv2/act/Sigmoid_output_0: 3c010a14
/model.18/m.0/cv2/act/Mul_output_0: 3cdd786c
/model.18/m.1/cv1/conv/Conv_output_0: 3d9aed11
/model.18/m.1/cv1/act/Sigmoid_output_0: 3c0111f4
/model.18/m.1/cv1/act/Mul_output_0: 3cb3f009
/model.18/m.1/cv2/conv/Conv_output_0: 3db023e5
/model.18/m.1/cv2/act/Sigmoid_output_0: 3c010fdb
/model.18/m.1/cv2/act/Mul_output_0: 3d11081c
/model.18/Concat_output_0: 3cf4a3bd
/model.18/cv2/conv/Conv_output_0: 3dc94efc
/model.18/cv2/act/Sigmoid_output_0: 3c011220
/model.18/cv2/act/Mul_output_0: 3d03f126
/model.19/conv/Conv_output_0: 3d52c48e
/model.19/act/Sigmoid_output_0: 3c010b4c
/model.19/act/Mul_output_0: 3d00ff98
/model.20/Concat_output_0: 3d00ff98
/model.21/cv1/conv/Conv_output_0: 3d88f457
/model.21/cv1/act/Sigmoid_output_0: 3c011126
/model.21/cv1/act/Mul_output_0: 3d13487b
/model.21/Slice_output_0: 3cdea2a9
/model.21/m.0/cv1/conv/Conv_output_0: 3d960f83
/model.21/m.0/cv1/act/Sigmoid_output_0: 3c011131
/model.21/m.0/cv1/act/Mul_output_0: 3d13ea3c
/model.21/m.0/cv2/conv/Conv_output_0: 3d906c16
/model.21/m.0/cv2/act/Sigmoid_output_0: 3c010963
/model.21/m.0/cv2/act/Mul_output_0: 3d15b3e3
/model.21/m.1/cv1/conv/Conv_output_0: 3d889d42
/model.21/m.1/cv1/act/Sigmoid_output_0: 3c010aee
/model.21/m.1/cv1/act/Mul_output_0: 3d0038df
/model.21/m.1/cv2/conv/Conv_output_0: 3dae8cfe
/model.21/m.1/cv2/act/Sigmoid_output_0: 3c020e60
/model.21/m.1/cv2/act/Mul_output_0: 3d458b6a
/model.21/Concat_output_0: 3d13487b
/model.21/cv2/conv/Conv_output_0: 3d9eed36
/model.21/cv2/act/Sigmoid_output_0: 3c0107a6
/model.21/cv2/act/Mul_output_0: 3ce9d01c
/model.22/cv2.0/cv2.0.0/conv/Conv_output_0: 3df35d3b
/model.22/cv2.0/cv2.0.0/act/Sigmoid_output_0: 3c020012
/model.22/cv2.0/cv2.0.0/act/Mul_output_0: 3d24ceaa
/model.22/cv2.0/cv2.0.1/conv/Conv_output_0: 3e44ae4b
/model.22/cv2.0/cv2.0.1/act/Sigmoid_output_0: 3c01d39d
/model.22/cv2.0/cv2.0.1/act/Mul_output_0: 3e16874c
/model.22/cv2.0/cv2.0.2/Conv_output_0: 3e571e96
/model.22/cv3.0/cv3.0.0/conv/Conv_output_0: 3d97fda4
/model.22/cv3.0/cv3.0.0/act/Sigmoid_output_0: 3c011217
/model.22/cv3.0/cv3.0.0/act/Mul_output_0: 3d03b482
/model.22/cv3.0/cv3.0.1/conv/Conv_output_0: 3e1bb462
/model.22/cv3.0/cv3.0.1/act/Sigmoid_output_0: 3c010a14
/model.22/cv3.0/cv3.0.1/act/Mul_output_0: 3e1cc111
/model.22/cv3.0/cv3.0.2/Conv_output_0: 3ee4d599
/model.22/Concat_output_0: 3ebb8e94
/model.22/cv2.1/cv2.1.0/conv/Conv_output_0: 3dc3fe7c
/model.22/cv2.1/cv2.1.0/act/Sigmoid_output_0: 3c020d99
/model.22/cv2.1/cv2.1.0/act/Mul_output_0: 3d42bf28
/model.22/cv2.1/cv2.1.1/conv/Conv_output_0: 3e3ca66f
/model.22/cv2.1/cv2.1.1/act/Sigmoid_output_0: 3c010a14
/model.22/cv2.1/cv2.1.1/act/Mul_output_0: 3e168748
/model.22/cv2.1/cv2.1.2/Conv_output_0: 3e442a0e
/model.22/cv3.1/cv3.1.0/conv/Conv_output_0: 3da99548
/model.22/cv3.1/cv3.1.0/act/Sigmoid_output_0: 3c01121c
/model.22/cv3.1/cv3.1.0/act/Mul_output_0: 3d1ae263
/model.22/cv3.1/cv3.1.1/conv/Conv_output_0: 3e478f96
/model.22/cv3.1/cv3.1.1/act/Sigmoid_output_0: 3c010a14
/model.22/cv3.1/cv3.1.1/act/Mul_output_0: 3e140958
/model.22/cv3.1/cv3.1.2/Conv_output_0: 3ec1b009
/model.22/Concat_1_output_0: 3eb099a3
/model.22/cv2.2/cv2.2.0/conv/Conv_output_0: 3dc94e3e
/model.22/cv2.2/cv2.2.0/act/Sigmoid_output_0: 3c03127f
/model.22/cv2.2/cv2.2.0/act/Mul_output_0: 3d410559
/model.22/cv2.2/cv2.2.1/conv/Conv_output_0: 3e6dddb9
/model.22/cv2.2/cv2.2.1/act/Sigmoid_output_0: 3c010a14
/model.22/cv2.2/cv2.2.1/act/Mul_output_0: 3e14a7ed
/model.22/cv2.2/cv2.2.2/Conv_output_0: 3db59306
/model.22/cv3.2/cv3.2.0/conv/Conv_output_0: 3d908b33
/model.22/cv3.2/cv3.2.0/act/Sigmoid_output_0: 3c0104c4
/model.22/cv3.2/cv3.2.0/act/Mul_output_0: 3d28961b
/model.22/cv3.2/cv3.2.1/conv/Conv_output_0: 3e1fdd31
/model.22/cv3.2/cv3.2.1/act/Sigmoid_output_0: 3c04181f
/model.22/cv3.2/cv3.2.1/act/Mul_output_0: 3dd3a391
/model.22/cv3.2/cv3.2.2/Conv_output_0: 3e60e8b4
/model.22/Concat_2_output_0: 3e5591ad
/model.22/Reshape_output_0: 3ebb8e94
/model.22/Reshape_1_output_0: 3eb099a3
/model.22/Reshape_2_output_0: 3e5591ad
/model.22/Concat_3_output_0: 3ec47e49
/model.22/Slice_output_0: 3e524d8d
/model.22/Slice_1_output_0: 3ee1379f
/model.22/Sigmoid_output_0: 3bf314e5
/model.22/Reshape_3_output_0: 3e524d8d
/model.22/Transpose_output_0: 3e524d8d
(Unnamed Layer* 287) [Shuffle]_output: 3e524d8d
(Unnamed Layer* 288) [Softmax]_output: 3bbe489e
/model.22/Softmax_output_0: 3bbe489e
(Unnamed Layer* 290) [Constant]_output: 3df1f2e6
(Unnamed Layer* 291) [Shuffle]_output: 3df1f2e6
(Unnamed Layer* 292) [Shuffle]_output: 3df1f2e6
(Unnamed Layer* 293) [Matrix Multiply]_output: 3de56399
/model.22/MatMul_output_0: 3de56399
/model.22/Slice_2_output_0: 3de56399
/model.22/Neg_output_0: 3de56399
/model.22/Slice_3_output_0: 3de31daf
/model.22/Concat_4_output_0: 3de56399
(Unnamed Layer* 299) [Constant]_output: 3f204a85
/model.22/Add_output_0: 3f22c460
(Unnamed Layer* 301) [Constant]_output: 3e810a14
(Unnamed Layer* 302) [Shuffle]_output: 3e810a14
/model.22/Mul_output_0: 40a1dffc
/model.22/Transpose_1_output_0: 40a1dffc
/model.22/Transpose_2_output_0: 3bf314e5
bboxes: 40a9b9fe
scores: 3c0998ad
